#include "network.h"
#include "arm_math_types.h"

#ifndef ALIGN_NETWORK 
#define ALIGN_NETWORK __ALIGNED(16)
#endif


ALIGN_NETWORK
const uint8_t network[NB_NETWORK]={0x02,0x00,0x00,0x00,0x3c,0x00,0x00,0x00,0x06,0x00,
0x00,0x00,0x00,0x00,0x00,0x00,0x01,0x00,0x00,0x00,
0x20,0x00,0x00,0x00,0x60,0x00,0x00,0x00,0x00,0x00,
0x00,0x00,0x12,0x83,0x50,0x3f,0xc3,0x64,0xca,0x3e,
0x86,0x5a,0xf3,0x3e,0x3b,0x70,0x3e,0x3f,0x67,0xd5,
0x27,0x3f,0x34,0xa2,0x44,0x3f,0xec,0x2f,0x3b,0x3d,
0x16,0x6a,0x4d,0x3e,0x42,0xcf,0xe6,0x3d,0xcb,0x10,
0x47,0x3e,0xff,0xb2,0x6b,0x3f,0xf5,0xdb,0x47,0x3f,
0xe5,0x61,0x21,0x3d,0x48,0xbf,0x7d,0x3e,0x91,0x0f,
0xba,0x3e,0x00,0x00,0x00,0x00,0x00,0x3c,0x00,0x40,
0x00,0x42,};
